// TinyML Behavioral Model
// Model size: 3504 bytes (3.42 KB)
// Quantization: int8

#ifndef MODEL_DATA_H
#define MODEL_DATA_H

const unsigned char model_data[] = {
  0x1c, 0x00, 0x00, 0x00, 0x54, 0x46, 0x4c, 0x33, 0x14, 0x00, 0x20, 0x00, 
  0x1c, 0x00, 0x18, 0x00, 0x14, 0x00, 0x10, 0x00, 0x0c, 0x00, 0x00, 0x00, 
  0x08, 0x00, 0x04, 0x00, 0x14, 0x00, 0x00, 0x00, 0x1c, 0x00, 0x00, 0x00, 
  0x98, 0x00, 0x00, 0x00, 0xf0, 0x00, 0x00, 0x00, 0xcc, 0x04, 0x00, 0x00, 
  0xdc, 0x04, 0x00, 0x00, 0x44, 0x0d, 0x00, 0x00, 0x03, 0x00, 0x00, 0x00, 
  0x01, 0x00, 0x00, 0x00, 0x10, 0x00, 0x00, 0x00, 0x00, 0x00, 0x0a, 0x00, 
  0x10, 0x00, 0x0c, 0x00, 0x08, 0x00, 0x04, 0x00, 0x0a, 0x00, 0x00, 0x00, 
  0x0c, 0x00, 0x00, 0x00, 0x1c, 0x00, 0x00, 0x00, 0x3c, 0x00, 0x00, 0x00, 
  0x0f, 0x00, 0x00, 0x00, 0x73, 0x65, 0x72, 0x76, 0x69, 0x6e, 0x67, 0x5f, 
  0x64, 0x65, 0x66, 0x61, 0x75, 0x6c, 0x74, 0x00, 0x01, 0x00, 0x00, 0x00, 
  0x04, 0x00, 0x00, 0x00, 0x90, 0xff, 0xff, 0xff, 0x07, 0x00, 0x00, 0x00, 
  0x04, 0x00, 0x00, 0x00, 0x08, 0x00, 0x00, 0x00, 0x6f, 0x75, 0x74, 0x70, 
  0x75, 0x74, 0x5f, 0x30, 0x00, 0x00, 0x00, 0x00, 0x01, 0x00, 0x00, 0x00, 
  0x04, 0x00, 0x00, 0x00, 0x1e, 0xfb, 0xff, 0xff, 0x04, 0x00, 0x00, 0x00, 
  0x0c, 0x00, 0x00, 0x00, 0x6b, 0x65, 0x72, 0x61, 0x73, 0x5f, 0x74, 0x65, 
  0x6e, 0x73, 0x6f, 0x72, 0x00, 0x00, 0x00, 0x00, 0x02, 0x00, 0x00, 0x00, 
  0x34, 0x00, 0x00, 0x00, 0x04, 0x00, 0x00, 0x00, 0xdc, 0xff, 0xff, 0xff, 
  0x0a, 0x00, 0x00, 0x00, 0x04, 0x00, 0x00, 0x00, 0x13, 0x00, 0x00, 0x00, 
  0x43, 0x4f, 0x4e, 0x56, 0x45, 0x52, 0x53, 0x49, 0x4f, 0x4e, 0x5f, 0x4d, 
  0x45, 0x54, 0x41, 0x44, 0x41, 0x54, 0x41, 0x00, 0x08, 0x00, 0x0c, 0x00, 
  0x08, 0x00, 0x04, 0x00, 0x08, 0x00, 0x00, 0x00, 0x09, 0x00, 0x00, 0x00, 
  0x04, 0x00, 0x00, 0x00, 0x13, 0x00, 0x00, 0x00, 0x6d, 0x69, 0x6e, 0x5f, 
  0x72, 0x75, 0x6e, 0x74, 0x69, 0x6d, 0x65, 0x5f, 0x76, 0x65, 0x72, 0x73, 
  0x69, 0x6f, 0x6e, 0x00, 0x0b, 0x00, 0x00, 0x00, 0xd8, 0x03, 0x00, 0x00, 
  0xd0, 0x03, 0x00, 0x00, 0x94, 0x03, 0x00, 0x00, 0x7c, 0x02, 0x00, 0x00, 
  0x0c, 0x02, 0x00, 0x00, 0xac, 0x00, 0x00, 0x00, 0xa4, 0x00, 0x00, 0x00, 
  0x9c, 0x00, 0x00, 0x00, 0x94, 0x00, 0x00, 0x00, 0x74, 0x00, 0x00, 0x00, 
  0x04, 0x00, 0x00, 0x00, 0xc6, 0xfb, 0xff, 0xff, 0x04, 0x00, 0x00, 0x00, 
  0x60, 0x00, 0x00, 0x00, 0x0c, 0x00, 0x00, 0x00, 0x08, 0x00, 0x0e, 0x00, 
  0x08, 0x00, 0x04, 0x00, 0x08, 0x00, 0x00, 0x00, 0x10, 0x00, 0x00, 0x00, 
  0x28, 0x00, 0x00, 0x00, 0x00, 0x00, 0x06, 0x00, 0x08, 0x00, 0x04, 0x00, 
  0x06, 0x00, 0x00, 0x00, 0x04, 0x00, 0x00, 0x00, 0x01, 0x00, 0x00, 0x00, 
  0xeb, 0x03, 0x00, 0x00, 0x0c, 0x00, 0x18, 0x00, 0x14, 0x00, 0x10, 0x00, 
  0x0c, 0x00, 0x04, 0x00, 0x0c, 0x00, 0x00, 0x00, 0x7f, 0x0f, 0x00, 0x69, 
  0x7f, 0xa1, 0xdd, 0x2b, 0x02, 0x00, 0x00, 0x00, 0x02, 0x00, 0x00, 0x00, 
  0x04, 0x00, 0x00, 0x00, 0x06, 0x00, 0x00, 0x00, 0x32, 0x2e, 0x32, 0x30, 
  0x2e, 0x30, 0x00, 0x00, 0x32, 0xfc, 0xff, 0xff, 0x04, 0x00, 0x00, 0x00, 
  0x10, 0x00, 0x00, 0x00, 0x31, 0x2e, 0x31, 0x34, 0x2e, 0x30, 0x00, 0x00, 
  0x00, 0x00, 0x00, 0x00, 0x00, 0x00, 0x00, 0x00, 0x1c, 0xfc, 0xff, 0xff, 
  0x20, 0xfc, 0xff, 0xff, 0x24, 0xfc, 0xff, 0xff, 0x5a, 0xfc, 0xff, 0xff, 
  0x04, 0x00, 0x00, 0x00, 0x50, 0x01, 0x00, 0x00, 0x39, 0x12, 0xfd, 0x7f, 
  0x03, 0xfa, 0xe9, 0x08, 0xe0, 0x1d, 0xf5, 0x4e, 0xb2, 0xbf, 0x01, 0x13, 
  0x00, 0x7f, 0x02, 0xfd, 0xe3, 0x1f, 0xe1, 0xff, 0x07, 0x0e, 0x05, 0x03, 
  0x05, 0xb3, 0xfd, 0x9f, 0x02, 0x02, 0xe3, 0x05, 0xf2, 0xf8, 0x07, 0x05, 
  0xdd, 0x81, 0x01, 0xd6, 0x03, 0xf4, 0x02, 0xff, 0xcf, 0xfb, 0xe9, 0x1c, 
  0xfe, 0x00, 0x7f, 0x24, 0x0e, 0x05, 0xff, 0x07, 0xff, 0x00, 0x44, 0xf1, 
  0x45, 0xd6, 0xf0, 0x02, 0x36, 0x7f, 0x0c, 0x18, 0xfb, 0xed, 0xfd, 0x02, 
  0x4c, 0xcd, 0x48, 0xfa, 0xf6, 0x81, 0x8a, 0xc4, 0xfe, 0x77, 0xff, 0x3f, 
  0xf7, 0xff, 0x59, 0xcb, 0x3d, 0xfa, 0x04, 0x01, 0xdf, 0x7f, 0xe7, 0xfa, 
  0xfe, 0x03, 0x01, 0x00, 0x06, 0xf9, 0xfe, 0xf3, 0x0e, 0xe8, 0xd4, 0x81, 
  0x02, 0xe3, 0x03, 0x11, 0x00, 0x00, 0xdd, 0xfb, 0xdd, 0xf5, 0x0a, 0x04, 
  0x7f, 0x13, 0xf4, 0x72, 0xfc, 0x22, 0xf9, 0xff, 0x7f, 0xc0, 0xfd, 0xfc, 
  0xff, 0xb7, 0xe5, 0x48, 0xf0, 0xa0, 0x0c, 0x81, 0x05, 0xff, 0xdb, 0xf8, 
  0x18, 0x1b, 0xf4, 0xe5, 0xfb, 0x14, 0xcd, 0xab, 0x03, 0x90, 0xfe, 0x05, 
  0xc5, 0xf5, 0x08, 0x84, 0x7f, 0xda, 0xba, 0x57, 0x04, 0xb4, 0xfd, 0xab, 
  0x02, 0x01, 0xe0, 0x0c, 0xe9, 0xf9, 0x0a, 0x00, 0xec, 0x81, 0xfe, 0xd3, 
  0x03, 0xb8, 0x03, 0x09, 0xa8, 0x81, 0x06, 0x07, 0x28, 0xeb, 0x36, 0xf8, 
  0x09, 0xf9, 0xff, 0xff, 0x00, 0x01, 0x19, 0x01, 0x04, 0x18, 0xf8, 0x04, 
  0x7f, 0x03, 0xff, 0xfa, 0xfe, 0x7f, 0x02, 0x00, 0xdf, 0x21, 0xb1, 0x1d, 
  0x0e, 0x0f, 0xde, 0xf0, 0xf4, 0x5d, 0xfd, 0xed, 0xfa, 0x05, 0x2f, 0x0a, 
  0xc7, 0x13, 0x07, 0xcc, 0xd0, 0x7f, 0x05, 0xdc, 0x02, 0xa0, 0x04, 0x0f, 
  0x81, 0xdf, 0xc8, 0xf1, 0xf7, 0xf6, 0x25, 0x96, 0x09, 0xf7, 0x00, 0xae, 
  0x02, 0x03, 0x0c, 0xee, 0xf5, 0xfc, 0x31, 0x08, 0x81, 0x5d, 0xfd, 0xfa, 
  0x03, 0x34, 0x03, 0x00, 0xe2, 0xfe, 0xfd, 0xfc, 0xfe, 0xff, 0x7f, 0x2c, 
  0x81, 0x1e, 0x00, 0xe3, 0xfb, 0x06, 0x4e, 0xe4, 0xa1, 0x21, 0xc7, 0xb4, 
  0xdb, 0xcf, 0xc9, 0xf4, 0xff, 0x65, 0x06, 0xfb, 0xbe, 0x42, 0x7f, 0xa3, 
  0x85, 0xe3, 0x99, 0x91, 0x81, 0x16, 0x00, 0xd9, 0xfe, 0x04, 0x54, 0xe4, 
  0xc1, 0x13, 0xf3, 0xb4, 0x13, 0x96, 0xcb, 0xff, 0xfa, 0xa1, 0x05, 0x10, 
  0x16, 0x81, 0x88, 0x01, 0x19, 0xcb, 0xe2, 0x0a, 0xb6, 0xfd, 0xff, 0xff, 
  0x04, 0x00, 0x00, 0x00, 0x60, 0x00, 0x00, 0x00, 0xe9, 0xf8, 0xff, 0xff, 
  0xc2, 0xfe, 0xff, 0xff, 0x86, 0x03, 0x00, 0x00, 0x38, 0xfd, 0xff, 0xff, 
  0xe3, 0x01, 0x00, 0x00, 0x87, 0xff, 0xff, 0xff, 0xbe, 0x01, 0x00, 0x00, 
  0xc9, 0xfe, 0xff, 0xff, 0x2b, 0x00, 0x00, 0x00, 0x29, 0x01, 0x00, 0x00, 
  0x90, 0x0c, 0x00, 0x00, 0xd1, 0x12, 0x00, 0x00, 0xba, 0x02, 0x00, 0x00, 
  0x11, 0xf9, 0xff, 0xff, 0xb5, 0x06, 0x00, 0x00, 0x81, 0xfb, 0xff, 0xff, 
  0x91, 0x02, 0x00, 0x00, 0x09, 0xff, 0xff, 0xff, 0xf0, 0xf9, 0xff, 0xff, 
  0xf5, 0xfe, 0xff, 0xff, 0xef, 0x00, 0x00, 0x00, 0x35, 0x01, 0x00, 0x00, 
  0xe4, 0x01, 0x00, 0x00, 0x9d, 0xff, 0xff, 0xff, 0x22, 0xfe, 0xff, 0xff, 
  0x04, 0x00, 0x00, 0x00, 0x08, 0x01, 0x00, 0x00, 0xfd, 0x00, 0x09, 0xb8, 
  0xb1, 0xc6, 0xd3, 0x95, 0x9c, 0xb9, 0x07, 0x04, 0x0e, 0x22, 0x9c, 0xfd, 
  0x01, 0x2d, 0x0c, 0xc1, 0xb4, 0x81, 0x89, 0x0a, 0x01, 0xf4, 0x05, 0xa4, 
  0xd0, 0xac, 0xf7, 0x0e, 0x8f, 0xfc, 0xaf, 0x81, 0x09, 0xec, 0x0b, 0xe3, 
  0xd4, 0xb9, 0xa5, 0xbc, 0xaa, 0x95, 0xf9, 0xa5, 0x01, 0x05, 0x97, 0xc4, 
  0xca, 0xf1, 0x06, 0xf5, 0xb7, 0x06, 0xa1, 0xf7, 0x98, 0xec, 0xf9, 0x04, 
  0x07, 0xd7, 0x81, 0xb9, 0xe2, 0xfb, 0xd9, 0xd8, 0xfa, 0x00, 0xa7, 0xa4, 
  0x16, 0x23, 0x0d, 0x0d, 0x81, 0x11, 0x9e, 0xa4, 0xac, 0xef, 0xcc, 0xf9, 
  0x0d, 0xdb, 0x8d, 0xb3, 0x0e, 0x00, 0x0d, 0xcf, 0x06, 0x06, 0xb2, 0xb9, 
  0x06, 0xd7, 0x07, 0xc5, 0xdc, 0x09, 0x81, 0xaa, 0xaa, 0xf9, 0x02, 0x06, 
  0x06, 0xf2, 0xa8, 0x0b, 0x04, 0xf9, 0xfe, 0xcc, 0x09, 0x09, 0xaa, 0xd3, 
  0x16, 0xd3, 0xf3, 0xab, 0x24, 0xc7, 0xbf, 0xd6, 0xb9, 0xc5, 0xef, 0x08, 
  0xbc, 0xc1, 0x81, 0x19, 0xe5, 0x07, 0xd5, 0xc6, 0x08, 0x09, 0x9e, 0xa4, 
  0xab, 0x0f, 0x0a, 0x15, 0xb0, 0x0c, 0xa5, 0xa8, 0x9e, 0xf4, 0xe6, 0x08, 
  0x05, 0xee, 0x81, 0xfb, 0x00, 0x07, 0x02, 0xc1, 0x13, 0x10, 0x84, 0xdb, 
  0xc5, 0xc3, 0x09, 0xa7, 0xcb, 0xed, 0x87, 0x81, 0x88, 0xe9, 0x90, 0x0f, 
  0xeb, 0xe5, 0x86, 0x19, 0xc8, 0x09, 0xc2, 0xc3, 0xa0, 0xff, 0x81, 0x23, 
  0xf4, 0xc5, 0x00, 0xb4, 0x1b, 0x03, 0xfb, 0x01, 0x81, 0xd4, 0x07, 0xfc, 
  0x0c, 0x02, 0xfe, 0x13, 0x0d, 0x98, 0x0e, 0xd4, 0x81, 0xb2, 0x00, 0xa2, 
  0x11, 0x37, 0xea, 0x17, 0xdf, 0xf8, 0x09, 0x05, 0x01, 0xa0, 0x07, 0x81, 
  0x00, 0x8f, 0x0f, 0xab, 0x0f, 0x0d, 0x12, 0x10, 0x0b, 0xb1, 0x11, 0x3a, 
  0x0a, 0xa7, 0x81, 0x19, 0x37, 0x92, 0x06, 0x00, 0x19, 0x5d, 0x0c, 0xc3, 
  0x88, 0x2b, 0xc4, 0x09, 0xd1, 0xfd, 0xe7, 0x99, 0x36, 0xff, 0xff, 0xff, 
  0x04, 0x00, 0x00, 0x00, 0x2c, 0x00, 0x00, 0x00, 0x46, 0x00, 0x00, 0x00, 
  0xae, 0x01, 0x00, 0x00, 0x96, 0x02, 0x00, 0x00, 0x1a, 0xfa, 0xff, 0xff, 
  0xef, 0xf9, 0xff, 0xff, 0xf2, 0xfd, 0xff, 0xff, 0x59, 0xf8, 0xff, 0xff, 
  0xb1, 0xf9, 0xff, 0xff, 0xed, 0x00, 0x00, 0x00, 0x41, 0x01, 0x00, 0x00, 
  0x2c, 0x00, 0x00, 0x00, 0x3c, 0xff, 0xff, 0xff, 0x40, 0xff, 0xff, 0xff, 
  0x0f, 0x00, 0x00, 0x00, 0x4d, 0x4c, 0x49, 0x52, 0x20, 0x43, 0x6f, 0x6e, 
  0x76, 0x65, 0x72, 0x74, 0x65, 0x64, 0x2e, 0x00, 0x01, 0x00, 0x00, 0x00, 
  0x14, 0x00, 0x00, 0x00, 0x00, 0x00, 0x0e, 0x00, 0x18, 0x00, 0x14, 0x00, 
  0x10, 0x00, 0x0c, 0x00, 0x08, 0x00, 0x04, 0x00, 0x0e, 0x00, 0x00, 0x00, 
  0x14, 0x00, 0x00, 0x00, 0x1c, 0x00, 0x00, 0x00, 0xf0, 0x00, 0x00, 0x00, 
  0xf4, 0x00, 0x00, 0x00, 0xf8, 0x00, 0x00, 0x00, 0x04, 0x00, 0x00, 0x00, 
  0x6d, 0x61, 0x69, 0x6e, 0x00, 0x00, 0x00, 0x00, 0x03, 0x00, 0x00, 0x00, 
  0x98, 0x00, 0x00, 0x00, 0x50, 0x00, 0x00, 0x00, 0x14, 0x00, 0x00, 0x00, 
  0x00, 0x00, 0x0e, 0x00, 0x1a, 0x00, 0x14, 0x00, 0x10, 0x00, 0x0c, 0x00, 
  0x0b, 0x00, 0x04, 0x00, 0x0e, 0x00, 0x00, 0x00, 0x1c, 0x00, 0x00, 0x00, 
  0x00, 0x00, 0x00, 0x09, 0x1c, 0x00, 0x00, 0x00, 0x20, 0x00, 0x00, 0x00, 
  0x01, 0x00, 0x00, 0x00, 0x00, 0x00, 0x06, 0x00, 0x08, 0x00, 0x04, 0x00, 
  0x06, 0x00, 0x00, 0x00, 0x00, 0x00, 0x80, 0x3f, 0x01, 0x00, 0x00, 0x00, 
  0x07, 0x00, 0x00, 0x00, 0x01, 0x00, 0x00, 0x00, 0x06, 0x00, 0x00, 0x00, 
  0xca, 0xff, 0xff, 0xff, 0x14, 0x00, 0x00, 0x00, 0x00, 0x00, 0x00, 0x08, 
  0x10, 0x00, 0x00, 0x00, 0x14, 0x00, 0x00, 0x00, 0x04, 0x00, 0x04, 0x00, 
  0x04, 0x00, 0x00, 0x00, 0x01, 0x00, 0x00, 0x00, 0x06, 0x00, 0x00, 0x00, 
  0x03, 0x00, 0x00, 0x00, 0x05, 0x00, 0x00, 0x00, 0x02, 0x00, 0x00, 0x00, 
  0x01, 0x00, 0x00, 0x00, 0x00, 0x00, 0x0e, 0x00, 0x16, 0x00, 0x00, 0x00, 
  0x10, 0x00, 0x0c, 0x00, 0x0b, 0x00, 0x04, 0x00, 0x0e, 0x00, 0x00, 0x00, 
  0x18, 0x00, 0x00, 0x00, 0x00, 0x00, 0x00, 0x08, 0x18, 0x00, 0x00, 0x00, 
  0x1c, 0x00, 0x00, 0x00, 0x00, 0x00, 0x06, 0x00, 0x08, 0x00, 0x07, 0x00, 
  0x06, 0x00, 0x00, 0x00, 0x00, 0x00, 0x00, 0x01, 0x01, 0x00, 0x00, 0x00, 
  0x05, 0x00, 0x00, 0x00, 0x03, 0x00, 0x00, 0x00, 0x00, 0x00, 0x00, 0x00, 
  0x04, 0x00, 0x00, 0x00, 0x03, 0x00, 0x00, 0x00, 0x01, 0x00, 0x00, 0x00, 
  0x07, 0x00, 0x00, 0x00, 0x01, 0x00, 0x00, 0x00, 0x00, 0x00, 0x00, 0x00, 
  0x08, 0x00, 0x00, 0x00, 0xbc, 0x06, 0x00, 0x00, 0xcc, 0x05, 0x00, 0x00, 
  0xd8, 0x04, 0x00, 0x00, 0x64, 0x03, 0x00, 0x00, 0xe8, 0x01, 0x00, 0x00, 
  0x1c, 0x01, 0x00, 0x00, 0x80, 0x00, 0x00, 0x00, 0x04, 0x00, 0x00, 0x00, 
  0x7a, 0xf9, 0xff, 0xff, 0x00, 0x00, 0x00, 0x01, 0x18, 0x00, 0x00, 0x00, 
  0x20, 0x00, 0x00, 0x00, 0x3c, 0x00, 0x00, 0x00, 0x08, 0x00, 0x00, 0x00, 
  0x00, 0x00, 0x00, 0x09, 0x50, 0x00, 0x00, 0x00, 0x02, 0x00, 0x00, 0x00, 
  0xff, 0xff, 0xff, 0xff, 0x0b, 0x00, 0x00, 0x00, 0x64, 0xf9, 0xff, 0xff, 
  0x08, 0x00, 0x00, 0x00, 0x10, 0x00, 0x00, 0x00, 0x01, 0x00, 0x00, 0x00, 
  0x80, 0xff, 0xff, 0xff, 0xff, 0xff, 0xff, 0xff, 0x01, 0x00, 0x00, 0x00, 
  0x00, 0x00, 0x80, 0x3b, 0x1b, 0x00, 0x00, 0x00, 0x53, 0x74, 0x61, 0x74, 
  0x65, 0x66, 0x75, 0x6c, 0x50, 0x61, 0x72, 0x74, 0x69, 0x74, 0x69, 0x6f, 
  0x6e, 0x65, 0x64, 0x43, 0x61, 0x6c, 0x6c, 0x5f, 0x31, 0x3a, 0x30, 0x00, 
  0x02, 0x00, 0x00, 0x00, 0x01, 0x00, 0x00, 0x00, 0x0b, 0x00, 0x00, 0x00, 
  0xf2, 0xf9, 0xff, 0xff, 0x00, 0x00, 0x00, 0x01, 0x18, 0x00, 0x00, 0x00, 
  0x20, 0x00, 0x00, 0x00, 0x3c, 0x00, 0x00, 0x00, 0x07, 0x00, 0x00, 0x00, 
  0x00, 0x00, 0x00, 0x09, 0x70, 0x00, 0x00, 0x00, 0x02, 0x00, 0x00, 0x00, 
  0xff, 0xff, 0xff, 0xff, 0x0b, 0x00, 0x00, 0x00, 0xdc, 0xf9, 0xff, 0xff, 
  0x08, 0x00, 0x00, 0x00, 0x10, 0x00, 0x00, 0x00, 0x01, 0x00, 0x00, 0x00, 
  0x67, 0x00, 0x00, 0x00, 0x00, 0x00, 0x00, 0x00, 0x01, 0x00, 0x00, 0x00, 
  0xc1, 0x56, 0x63, 0x3f, 0x3a, 0x00, 0x00, 0x00, 0x73, 0x65, 0x71, 0x75, 
  0x65, 0x6e, 0x74, 0x69, 0x61, 0x6c, 0x5f, 0x31, 0x2f, 0x6f, 0x75, 0x74, 
  0x70, 0x75, 0x74, 0x5f, 0x31, 0x2f, 0x4d, 0x61, 0x74, 0x4d, 0x75, 0x6c, 
  0x3b, 0x73, 0x65, 0x71, 0x75, 0x65, 0x6e, 0x74, 0x69, 0x61, 0x6c, 0x5f, 
  0x31, 0x2f, 0x6f, 0x75, 0x74, 0x70, 0x75, 0x74, 0x5f, 0x31, 0x2f, 0x42, 
  0x69, 0x61, 0x73, 0x41, 0x64, 0x64, 0x00, 0x00, 0x02, 0x00, 0x00, 0x00, 
  0x01, 0x00, 0x00, 0x00, 0x0b, 0x00, 0x00, 0x00, 0x8a, 0xfa, 0xff, 0xff, 
  0x00, 0x00, 0x00, 0x01, 0x18, 0x00, 0x00, 0x00, 0x20, 0x00, 0x00, 0x00, 
  0x40, 0x00, 0x00, 0x00, 0x06, 0x00, 0x00, 0x00, 0x00, 0x00, 0x00, 0x09, 
  0xa0, 0x00, 0x00, 0x00, 0x02, 0x00, 0x00, 0x00, 0xff, 0xff, 0xff, 0xff, 
  0x18, 0x00, 0x00, 0x00, 0x74, 0xfa, 0xff, 0xff, 0x08, 0x00, 0x00, 0x00, 
  0x14, 0x00, 0x00, 0x00, 0x01, 0x00, 0x00, 0x00, 0x80, 0xff, 0xff, 0xff, 
  0xff, 0xff, 0xff, 0xff, 0x00, 0x00, 0x00, 0x00, 0x01, 0x00, 0x00, 0x00, 
  0x28, 0x3b, 0x00, 0x3d, 0x67, 0x00, 0x00, 0x00, 0x73, 0x65, 0x71, 0x75, 
  0x65, 0x6e, 0x74, 0x69, 0x61, 0x6c, 0x5f, 0x31, 0x2f, 0x64, 0x65, 0x6e, 
  0x73, 0x65, 0x5f, 0x68, 0x69, 0x64, 0x64, 0x65, 0x6e, 0x5f, 0x31, 0x2f, 
  0x4d, 0x61, 0x74, 0x4d, 0x75, 0x6c, 0x3b, 0x73, 0x65, 0x71, 0x75, 0x65, 
  0x6e, 0x74, 0x69, 0x61, 0x6c, 0x5f, 0x31, 0x2f, 0x64, 0x65, 0x6e, 0x73, 
  0x65, 0x5f, 0x68, 0x69, 0x64, 0x64, 0x65, 0x6e, 0x5f, 0x31, 0x2f, 0x52, 
  0x65, 0x6c, 0x75, 0x3b, 0x73, 0x65, 0x71, 0x75, 0x65, 0x6e, 0x74, 0x69, 
  0x61, 0x6c, 0x5f, 0x31, 0x2f, 0x64, 0x65, 0x6e, 0x73, 0x65, 0x5f, 0x68, 
  0x69, 0x64, 0x64, 0x65, 0x6e, 0x5f, 0x31, 0x2f, 0x42, 0x69, 0x61, 0x73, 
  0x41, 0x64, 0x64, 0x00, 0x02, 0x00, 0x00, 0x00, 0x01, 0x00, 0x00, 0x00, 
  0x18, 0x00, 0x00, 0x00, 0x3e, 0xfc, 0xff, 0xff, 0x00, 0x00, 0x00, 0x01, 
  0x14, 0x00, 0x00, 0x00, 0x48, 0x01, 0x00, 0x00, 0x05, 0x00, 0x00, 0x00, 
  0x00, 0x00, 0x00, 0x09, 0x54, 0x01, 0x00, 0x00, 0x2c, 0xfb, 0xff, 0xff, 
  0x08, 0x00, 0x00, 0x00, 0xcc, 0x00, 0x00, 0x00, 0x18, 0x00, 0x00, 0x00, 
  0x00, 0x00, 0x00, 0x00, 0x00, 0x00, 0x00, 0x00, 0x00, 0x00, 0x00, 0x00, 
  0x00, 0x00, 0x00, 0x00, 0x00, 0x00, 0x00, 0x00, 0x00, 0x00, 0x00, 0x00, 
  0x00, 0x00, 0x00, 0x00, 0x00, 0x00, 0x00, 0x00, 0x00, 0x00, 0x00, 0x00, 
  0x00, 0x00, 0x00, 0x00, 0x00, 0x00, 0x00, 0x00, 0x00, 0x00, 0x00, 0x00, 
  0x00, 0x00, 0x00, 0x00, 0x00, 0x00, 0x00, 0x00, 0x00, 0x00, 0x00, 0x00, 
  0x00, 0x00, 0x00, 0x00, 0x00, 0x00, 0x00, 0x00, 0x00, 0x00, 0x00, 0x00, 
  0x00, 0x00, 0x00, 0x00, 0x00, 0x00, 0x00, 0x00, 0x00, 0x00, 0x00, 0x00, 
  0x00, 0x00, 0x00, 0x00, 0x00, 0x00, 0x00, 0x00, 0x00, 0x00, 0x00, 0x00, 
  0x00, 0x00, 0x00, 0x00, 0x00, 0x00, 0x00, 0x00, 0x00, 0x00, 0x00, 0x00, 
  0x00, 0x00, 0x00, 0x00, 0x00, 0x00, 0x00, 0x00, 0x00, 0x00, 0x00, 0x00, 
  0x00, 0x00, 0x00, 0x00, 0x00, 0x00, 0x00, 0x00, 0x00, 0x00, 0x00, 0x00, 
  0x00, 0x00, 0x00, 0x00, 0x00, 0x00, 0x00, 0x00, 0x00, 0x00, 0x00, 0x00, 
  0x00, 0x00, 0x00, 0x00, 0x00, 0x00, 0x00, 0x00, 0x00, 0x00, 0x00, 0x00, 
  0x00, 0x00, 0x00, 0x00, 0x00, 0x00, 0x00, 0x00, 0x00, 0x00, 0x00, 0x00, 
  0x00, 0x00, 0x00, 0x00, 0x00, 0x00, 0x00, 0x00, 0x00, 0x00, 0x00, 0x00, 
  0x00, 0x00, 0x00, 0x00, 0x00, 0x00, 0x00, 0x00, 0x00, 0x00, 0x00, 0x00, 
  0x00, 0x00, 0x00, 0x00, 0x18, 0x00, 0x00, 0x00, 0x52, 0x49, 0x3c, 0x3b, 
  0xb2, 0x34, 0x88, 0x3b, 0xd3, 0xea, 0x46, 0x3b, 0x8c, 0x8e, 0x8b, 0x3b, 
  0x75, 0x9c, 0x76, 0x3b, 0x86, 0x46, 0x26, 0x3b, 0x18, 0x38, 0x43, 0x3b, 
  0x3e, 0xb8, 0x5d, 0x3b, 0x5b, 0xfb, 0x93, 0x3b, 0xa8, 0x0c, 0x3a, 0x3b, 
  0xff, 0xf7, 0x35, 0x3b, 0xa8, 0xda, 0xa2, 0x3a, 0xed, 0xde, 0x53, 0x3b, 
  0xa0, 0x19, 0x6d, 0x3b, 0xa1, 0x2f, 0xa6, 0x3b, 0x4a, 0xf8, 0x68, 0x3b, 
  0x5a, 0x48, 0x47, 0x3b, 0xa4, 0x9c, 0x5e, 0x3b, 0x20, 0x7d, 0x5d, 0x3b, 
  0x41, 0xe2, 0x78, 0x3b, 0x42, 0xec, 0x00, 0x3b, 0x50, 0x56, 0xeb, 0x3a, 
  0xa0, 0xd1, 0x0a, 0x3b, 0x6a, 0xa9, 0x1c, 0x3b, 0x12, 0x00, 0x00, 0x00, 
  0x74, 0x66, 0x6c, 0x2e, 0x70, 0x73, 0x65, 0x75, 0x64, 0x6f, 0x5f, 0x71, 
  0x63, 0x6f, 0x6e, 0x73, 0x74, 0x33, 0x00, 0x00, 0x02, 0x00, 0x00, 0x00, 
  0x18, 0x00, 0x00, 0x00, 0x0e, 0x00, 0x00, 0x00, 0xb6, 0xfd, 0xff, 0xff, 
  0x00, 0x00, 0x00, 0x01, 0x14, 0x00, 0x00, 0x00, 0x44, 0x01, 0x00, 0x00, 
  0x04, 0x00, 0x00, 0x00, 0x00, 0x00, 0x00, 0x02, 0x50, 0x01, 0x00, 0x00, 
  0xa4, 0xfc, 0xff, 0xff, 0x08, 0x00, 0x00, 0x00, 0xc8, 0x00, 0x00, 0x00, 
  0x18, 0x00, 0x00, 0x00, 0x00, 0x00, 0x00, 0x00, 0x00, 0x00, 0x00, 0x00, 
  0x00, 0x00, 0x00, 0x00, 0x00, 0x00, 0x00, 0x00, 0x00, 0x00, 0x00, 0x00, 
  0x00, 0x00, 0x00, 0x00, 0x00, 0x00, 0x00, 0x00, 0x00, 0x00, 0x00, 0x00, 
  0x00, 0x00, 0x00, 0x00, 0x00, 0x00, 0x00, 0x00, 0x00, 0x00, 0x00, 0x00, 
  0x00, 0x00, 0x00, 0x00, 0x00, 0x00, 0x00, 0x00, 0x00, 0x00, 0x00, 0x00, 
  0x00, 0x00, 0x00, 0x00, 0x00, 0x00, 0x00, 0x00, 0x00, 0x00, 0x00, 0x00, 
  0x00, 0x00, 0x00, 0x00, 0x00, 0x00, 0x00, 0x00, 0x00, 0x00, 0x00, 0x00, 
  0x00, 0x00, 0x00, 0x00, 0x00, 0x00, 0x00, 0x00, 0x00, 0x00, 0x00, 0x00, 
  0x00, 0x00, 0x00, 0x00, 0x00, 0x00, 0x00, 0x00, 0x00, 0x00, 0x00, 0x00, 
  0x00, 0x00, 0x00, 0x00, 0x00, 0x00, 0x00, 0x00, 0x00, 0x00, 0x00, 0x00, 
  0x00, 0x00, 0x00, 0x00, 0x00, 0x00, 0x00, 0x00, 0x00, 0x00, 0x00, 0x00, 
  0x00, 0x00, 0x00, 0x00, 0x00, 0x00, 0x00, 0x00, 0x00, 0x00, 0x00, 0x00, 
  0x00, 0x00, 0x00, 0x00, 0x00, 0x00, 0x00, 0x00, 0x00, 0x00, 0x00, 0x00, 
  0x00, 0x00, 0x00, 0x00, 0x00, 0x00, 0x00, 0x00, 0x00, 0x00, 0x00, 0x00, 
  0x00, 0x00, 0x00, 0x00, 0x00, 0x00, 0x00, 0x00, 0x00, 0x00, 0x00, 0x00, 
  0x00, 0x00, 0x00, 0x00, 0x00, 0x00, 0x00, 0x00, 0x00, 0x00, 0x00, 0x00, 
  0x00, 0x00, 0x00, 0x00, 0x18, 0x00, 0x00, 0x00, 0x7b, 0xdb, 0x91, 0x39, 
  0x8c, 0x06, 0xd3, 0x39, 0xb7, 0x17, 0x9a, 0x39, 0xa1, 0x37, 0xd8, 0x39, 
  0xfd, 0x09, 0xbf, 0x39, 0x73, 0xce, 0x80, 0x39, 0x53, 0x3a, 0x97, 0x39, 
  0xb6, 0xc1, 0xab, 0x39, 0x33, 0x45, 0xe5, 0x39, 0xdd, 0x1f, 0x90, 0x39, 
  0x9c, 0xf6, 0x8c, 0x39, 0xe7, 0x4f, 0xfc, 0x38, 0x8e, 0x20, 0xa4, 0x39, 
  0xd4, 0xab, 0xb7, 0x39, 0xb6, 0xbc, 0x00, 0x3a, 0xc2, 0x78, 0xb4, 0x39, 
  0x2a, 0x60, 0x9a, 0x39, 0xa4, 0x72, 0xac, 0x39, 0xea, 0x93, 0xab, 0x39, 
  0xaf, 0xcc, 0xc0, 0x39, 0xf3, 0xbd, 0x47, 0x39, 0x38, 0x4e, 0x36, 0x39, 
  0xee, 0x12, 0x57, 0x39, 0xde, 0xb7, 0x72, 0x39, 0x12, 0x00, 0x00, 0x00, 
  0x74, 0x66, 0x6c, 0x2e, 0x70, 0x73, 0x65, 0x75, 0x64, 0x6f, 0x5f, 0x71, 
  0x63, 0x6f, 0x6e, 0x73, 0x74, 0x32, 0x00, 0x00, 0x01, 0x00, 0x00, 0x00, 
  0x18, 0x00, 0x00, 0x00, 0x26, 0xff, 0xff, 0xff, 0x00, 0x00, 0x00, 0x01, 
  0x14, 0x00, 0x00, 0x00, 0xa8, 0x00, 0x00, 0x00, 0x03, 0x00, 0x00, 0x00, 
  0x00, 0x00, 0x00, 0x09, 0xb4, 0x00, 0x00, 0x00, 0x14, 0xfe, 0xff, 0xff, 
  0x08, 0x00, 0x00, 0x00, 0x60, 0x00, 0x00, 0x00, 0x0b, 0x00, 0x00, 0x00, 
  0x00, 0x00, 0x00, 0x00, 0x00, 0x00, 0x00, 0x00, 0x00, 0x00, 0x00, 0x00, 
  0x00, 0x00, 0x00, 0x00, 0x00, 0x00, 0x00, 0x00, 0x00, 0x00, 0x00, 0x00, 
  0x00, 0x00, 0x00, 0x00, 0x00, 0x00, 0x00, 0x00, 0x00, 0x00, 0x00, 0x00, 
  0x00, 0x00, 0x00, 0x00, 0x00, 0x00, 0x00, 0x00, 0x00, 0x00, 0x00, 0x00, 
  0x00, 0x00, 0x00, 0x00, 0x00, 0x00, 0x00, 0x00, 0x00, 0x00, 0x00, 0x00, 
  0x00, 0x00, 0x00, 0x00, 0x00, 0x00, 0x00, 0x00, 0x00, 0x00, 0x00, 0x00, 
  0x00, 0x00, 0x00, 0x00, 0x00, 0x00, 0x00, 0x00, 0x00, 0x00, 0x00, 0x00, 
  0x00, 0x00, 0x00, 0x00, 0x0b, 0x00, 0x00, 0x00, 0x53, 0xd3, 0x00, 0x3e, 
  0x54, 0x13, 0xce, 0x3d, 0x57, 0x42, 0xe1, 0x3d, 0x2f, 0x25, 0xa1, 0x3d, 
  0xbb, 0x20, 0xea, 0x3d, 0x2d, 0x70, 0x9f, 0x3d, 0x23, 0x3d, 0xa2, 0x3d, 
  0x87, 0x6e, 0x7b, 0x3d, 0x22, 0xb8, 0xd0, 0x3d, 0xaf, 0x6f, 0xc0, 0x3d, 
  0x39, 0xe8, 0xc1, 0x3d, 0x12, 0x00, 0x00, 0x00, 0x74, 0x66, 0x6c, 0x2e, 
  0x70, 0x73, 0x65, 0x75, 0x64, 0x6f, 0x5f, 0x71, 0x63, 0x6f, 0x6e, 0x73, 
  0x74, 0x31, 0x00, 0x00, 0x02, 0x00, 0x00, 0x00, 0x0b, 0x00, 0x00, 0x00, 
  0x18, 0x00, 0x00, 0x00, 0x00, 0x00, 0x16, 0x00, 0x1c, 0x00, 0x18, 0x00, 
  0x17, 0x00, 0x10, 0x00, 0x0c, 0x00, 0x08, 0x00, 0x00, 0x00, 0x00, 0x00, 
  0x00, 0x00, 0x07, 0x00, 0x16, 0x00, 0x00, 0x00, 0x00, 0x00, 0x00, 0x01, 
  0x14, 0x00, 0x00, 0x00, 0xa8, 0x00, 0x00, 0x00, 0x02, 0x00, 0x00, 0x00, 
  0x00, 0x00, 0x00, 0x02, 0xb4, 0x00, 0x00, 0x00, 0x04, 0xff, 0xff, 0xff, 
  0x08, 0x00, 0x00, 0x00, 0x60, 0x00, 0x00, 0x00, 0x0b, 0x00, 0x00, 0x00, 
  0x00, 0x00, 0x00, 0x00, 0x00, 0x00, 0x00, 0x00, 0x00, 0x00, 0x00, 0x00, 
  0x00, 0x00, 0x00, 0x00, 0x00, 0x00, 0x00, 0x00, 0x00, 0x00, 0x00, 0x00, 
  0x00, 0x00, 0x00, 0x00, 0x00, 0x00, 0x00, 0x00, 0x00, 0x00, 0x00, 0x00, 
  0x00, 0x00, 0x00, 0x00, 0x00, 0x00, 0x00, 0x00, 0x00, 0x00, 0x00, 0x00, 
  0x00, 0x00, 0x00, 0x00, 0x00, 0x00, 0x00, 0x00, 0x00, 0x00, 0x00, 0x00, 
  0x00, 0x00, 0x00, 0x00, 0x00, 0x00, 0x00, 0x00, 0x00, 0x00, 0x00, 0x00, 
  0x00, 0x00, 0x00, 0x00, 0x00, 0x00, 0x00, 0x00, 0x00, 0x00, 0x00, 0x00, 
  0x00, 0x00, 0x00, 0x00, 0x0b, 0x00, 0x00, 0x00, 0xdd, 0x0e, 0x81, 0x3b, 
  0x91, 0x72, 0x4e, 0x3b, 0x72, 0xaa, 0x61, 0x3b, 0xa8, 0x6f, 0x21, 0x3b, 
  0xef, 0x8c, 0x6a, 0x3b, 0xdd, 0xb9, 0x1f, 0x3b, 0x1e, 0x88, 0x22, 0x3b, 
  0xbb, 0xe2, 0xfb, 0x3a, 0x98, 0x18, 0x51, 0x3b, 0x9f, 0xc8, 0x40, 0x3b, 
  0xd7, 0x41, 0x42, 0x3b, 0x11, 0x00, 0x00, 0x00, 0x74, 0x66, 0x6c, 0x2e, 
  0x70, 0x73, 0x65, 0x75, 0x64, 0x6f, 0x5f, 0x71, 0x63, 0x6f, 0x6e, 0x73, 
  0x74, 0x00, 0x00, 0x00, 0x01, 0x00, 0x00, 0x00, 0x0b, 0x00, 0x00, 0x00, 
  0x00, 0x00, 0x16, 0x00, 0x20, 0x00, 0x1c, 0x00, 0x1b, 0x00, 0x14, 0x00, 
  0x10, 0x00, 0x0c, 0x00, 0x00, 0x00, 0x00, 0x00, 0x08, 0x00, 0x07, 0x00, 
  0x16, 0x00, 0x00, 0x00, 0x00, 0x00, 0x00, 0x01, 0x18, 0x00, 0x00, 0x00, 
  0x2c, 0x00, 0x00, 0x00, 0x48, 0x00, 0x00, 0x00, 0x01, 0x00, 0x00, 0x00, 
  0x00, 0x00, 0x00, 0x09, 0x60, 0x00, 0x00, 0x00, 0x02, 0x00, 0x00, 0x00, 
  0xff, 0xff, 0xff, 0xff, 0x0e, 0x00, 0x00, 0x00, 0x0c, 0x00, 0x0c, 0x00, 
  0x00, 0x00, 0x00, 0x00, 0x08, 0x00, 0x04, 0x00, 0x0c, 0x00, 0x00, 0x00, 
  0x08, 0x00, 0x00, 0x00, 0x10, 0x00, 0x00, 0x00, 0x01, 0x00, 0x00, 0x00, 
  0xfd, 0xff, 0xff, 0xff, 0xff, 0xff, 0xff, 0xff, 0x01, 0x00, 0x00, 0x00, 
  0xe9, 0x4f, 0xc6, 0x3d, 0x1e, 0x00, 0x00, 0x00, 0x73, 0x65, 0x72, 0x76, 
  0x69, 0x6e, 0x67, 0x5f, 0x64, 0x65, 0x66, 0x61, 0x75, 0x6c, 0x74, 0x5f, 
  0x6b, 0x65, 0x72, 0x61, 0x73, 0x5f, 0x74, 0x65, 0x6e, 0x73, 0x6f, 0x72, 
  0x3a, 0x30, 0x00, 0x00, 0x02, 0x00, 0x00, 0x00, 0x01, 0x00, 0x00, 0x00, 
  0x0e, 0x00, 0x00, 0x00, 0x02, 0x00, 0x00, 0x00, 0x24, 0x00, 0x00, 0x00, 
  0x04, 0x00, 0x00, 0x00, 0xf0, 0xff, 0xff, 0xff, 0x19, 0x00, 0x00, 0x00, 
  0x02, 0x00, 0x00, 0x00, 0x00, 0x00, 0x00, 0x19, 0x0c, 0x00, 0x10, 0x00, 
  0x0f, 0x00, 0x00, 0x00, 0x08, 0x00, 0x04, 0x00, 0x0c, 0x00, 0x00, 0x00, 
  0x09, 0x00, 0x00, 0x00, 0x04, 0x00, 0x00, 0x00, 0x00, 0x00, 0x00, 0x09

};

const unsigned int model_data_len = 3504;

// Label mappings
const char* behavior_labels[] = {
  "away",
  "chill",
  "cooking",
  "dangerously_high_temp",
  "emergency_fire",
  "emergency_gas",
  "emergency_smoke",
  "emergency_toxic",
  "high_activity",
  "normal",
  "sleeping",
};

const int num_labels = 11;

// Quantization parameters
const float input_scale = 0.09683210f;
const int input_zero_point = -3;
const float output_scale = 0.00390625f;
const int output_zero_point = -128;

#endif // MODEL_DATA_H
